unsigned char sine[] = {
  0x1c, 0x00, 0x00, 0x00, 0x54, 0x46, 0x4c, 0x33, 0x14, 0x00, 0x20, 0x00,
  0x1c, 0x00, 0x18, 0x00, 0x14, 0x00, 0x10, 0x00, 0x0c, 0x00, 0x00, 0x00,
  0x08, 0x00, 0x04, 0x00, 0x14, 0x00, 0x00, 0x00, 0x1c, 0x00, 0x00, 0x00,
  0x98, 0x00, 0x00, 0x00, 0xf0, 0x00, 0x00, 0x00, 0x14, 0x07, 0x00, 0x00,
  0x24, 0x07, 0x00, 0x00, 0x08, 0x0c, 0x00, 0x00, 0x03, 0x00, 0x00, 0x00,
  0x01, 0x00, 0x00, 0x00, 0x10, 0x00, 0x00, 0x00, 0x00, 0x00, 0x0a, 0x00,
  0x10, 0x00, 0x0c, 0x00, 0x08, 0x00, 0x04, 0x00, 0x0a, 0x00, 0x00, 0x00,
  0x0c, 0x00, 0x00, 0x00, 0x1c, 0x00, 0x00, 0x00, 0x3c, 0x00, 0x00, 0x00,
  0x0f, 0x00, 0x00, 0x00, 0x73, 0x65, 0x72, 0x76, 0x69, 0x6e, 0x67, 0x5f,
  0x64, 0x65, 0x66, 0x61, 0x75, 0x6c, 0x74, 0x00, 0x01, 0x00, 0x00, 0x00,
  0x04, 0x00, 0x00, 0x00, 0x90, 0xff, 0xff, 0xff, 0x09, 0x00, 0x00, 0x00,
  0x04, 0x00, 0x00, 0x00, 0x08, 0x00, 0x00, 0x00, 0x6f, 0x75, 0x74, 0x70,
  0x75, 0x74, 0x5f, 0x30, 0x00, 0x00, 0x00, 0x00, 0x01, 0x00, 0x00, 0x00,
  0x04, 0x00, 0x00, 0x00, 0xba, 0xf9, 0xff, 0xff, 0x04, 0x00, 0x00, 0x00,
  0x0e, 0x00, 0x00, 0x00, 0x6b, 0x65, 0x72, 0x61, 0x73, 0x5f, 0x74, 0x65,
  0x6e, 0x73, 0x6f, 0x72, 0x5f, 0x34, 0x00, 0x00, 0x02, 0x00, 0x00, 0x00,
  0x34, 0x00, 0x00, 0x00, 0x04, 0x00, 0x00, 0x00, 0xdc, 0xff, 0xff, 0xff,
  0x0c, 0x00, 0x00, 0x00, 0x04, 0x00, 0x00, 0x00, 0x13, 0x00, 0x00, 0x00,
  0x43, 0x4f, 0x4e, 0x56, 0x45, 0x52, 0x53, 0x49, 0x4f, 0x4e, 0x5f, 0x4d,
  0x45, 0x54, 0x41, 0x44, 0x41, 0x54, 0x41, 0x00, 0x08, 0x00, 0x0c, 0x00,
  0x08, 0x00, 0x04, 0x00, 0x08, 0x00, 0x00, 0x00, 0x0b, 0x00, 0x00, 0x00,
  0x04, 0x00, 0x00, 0x00, 0x13, 0x00, 0x00, 0x00, 0x6d, 0x69, 0x6e, 0x5f,
  0x72, 0x75, 0x6e, 0x74, 0x69, 0x6d, 0x65, 0x5f, 0x76, 0x65, 0x72, 0x73,
  0x69, 0x6f, 0x6e, 0x00, 0x0d, 0x00, 0x00, 0x00, 0x20, 0x06, 0x00, 0x00,
  0x18, 0x06, 0x00, 0x00, 0xc8, 0x05, 0x00, 0x00, 0xb0, 0x01, 0x00, 0x00,
  0x9c, 0x01, 0x00, 0x00, 0x4c, 0x01, 0x00, 0x00, 0xfc, 0x00, 0x00, 0x00,
  0xac, 0x00, 0x00, 0x00, 0xa4, 0x00, 0x00, 0x00, 0x9c, 0x00, 0x00, 0x00,
  0x94, 0x00, 0x00, 0x00, 0x74, 0x00, 0x00, 0x00, 0x04, 0x00, 0x00, 0x00,
  0x6a, 0xfa, 0xff, 0xff, 0x04, 0x00, 0x00, 0x00, 0x60, 0x00, 0x00, 0x00,
  0x0c, 0x00, 0x00, 0x00, 0x08, 0x00, 0x0e, 0x00, 0x08, 0x00, 0x04, 0x00,
  0x08, 0x00, 0x00, 0x00, 0x10, 0x00, 0x00, 0x00, 0x28, 0x00, 0x00, 0x00,
  0x00, 0x00, 0x06, 0x00, 0x08, 0x00, 0x04, 0x00, 0x06, 0x00, 0x00, 0x00,
  0x04, 0x00, 0x00, 0x00, 0x01, 0x00, 0x00, 0x00, 0xea, 0x03, 0x00, 0x00,
  0x0c, 0x00, 0x18, 0x00, 0x14, 0x00, 0x10, 0x00, 0x0c, 0x00, 0x04, 0x00,
  0x0c, 0x00, 0x00, 0x00, 0xec, 0xb7, 0xa8, 0x9a, 0xd0, 0xf4, 0x0a, 0xe3,
  0x02, 0x00, 0x00, 0x00, 0x02, 0x00, 0x00, 0x00, 0x04, 0x00, 0x00, 0x00,
  0x06, 0x00, 0x00, 0x00, 0x32, 0x2e, 0x31, 0x38, 0x2e, 0x30, 0x00, 0x00,
  0xd6, 0xfa, 0xff, 0xff, 0x04, 0x00, 0x00, 0x00, 0x10, 0x00, 0x00, 0x00,
  0x31, 0x2e, 0x35, 0x2e, 0x30, 0x00, 0x00, 0x00, 0x00, 0x00, 0x00, 0x00,
  0x00, 0x00, 0x00, 0x00, 0xd8, 0xf5, 0xff, 0xff, 0xdc, 0xf5, 0xff, 0xff,
  0xe0, 0xf5, 0xff, 0xff, 0xfe, 0xfa, 0xff, 0xff, 0x04, 0x00, 0x00, 0x00,
  0x40, 0x00, 0x00, 0x00, 0x26, 0x1f, 0xd3, 0xbc, 0x7a, 0x4d, 0x9a, 0x3e,
  0xe7, 0xcc, 0xde, 0x3e, 0xfb, 0xd4, 0xc8, 0xbe, 0x05, 0x31, 0xc6, 0xbe,
  0x4c, 0x93, 0xe3, 0xbd, 0x05, 0x3a, 0xfc, 0xbe, 0x65, 0xba, 0x18, 0x3f,
  0xa3, 0xdc, 0xa1, 0xbe, 0xe3, 0x02, 0x72, 0x3e, 0x9a, 0x63, 0x84, 0x3e,
  0xa0, 0xa2, 0x28, 0xbd, 0xe2, 0x25, 0x82, 0x3e, 0x11, 0x09, 0xbf, 0x3e,
  0xc3, 0x7a, 0xf2, 0x3e, 0x1c, 0x32, 0x67, 0x3c, 0x4a, 0xfb, 0xff, 0xff,
  0x04, 0x00, 0x00, 0x00, 0x40, 0x00, 0x00, 0x00, 0xb6, 0x34, 0x21, 0x3f,
  0x18, 0xf8, 0x20, 0x3f, 0xaf, 0x6e, 0x89, 0x3d, 0x00, 0x00, 0x00, 0x00,
  0x00, 0x00, 0x00, 0x00, 0x00, 0x00, 0x00, 0x00, 0x00, 0x00, 0x00, 0x00,
  0xe9, 0x7d, 0x18, 0xbf, 0x00, 0x00, 0x00, 0x00, 0xf2, 0x39, 0xf5, 0xbe,
  0xf3, 0xdc, 0xc6, 0x3e, 0x00, 0x00, 0x00, 0x00, 0x32, 0xc4, 0x27, 0x39,
  0xd1, 0xb3, 0x1c, 0xbf, 0x76, 0x9f, 0x28, 0xbf, 0x74, 0x22, 0xbe, 0xbd,
  0x96, 0xfb, 0xff, 0xff, 0x04, 0x00, 0x00, 0x00, 0x40, 0x00, 0x00, 0x00,
  0x54, 0x5c, 0xcd, 0xbb, 0x00, 0x00, 0x00, 0x00, 0x00, 0x00, 0x00, 0x00,
  0x19, 0xfb, 0x0b, 0xbf, 0x29, 0x8f, 0x0f, 0x3f, 0x14, 0x50, 0x99, 0xbc,
  0x3f, 0x4c, 0x41, 0x3e, 0xe4, 0x6b, 0x16, 0x3e, 0xd8, 0x63, 0x07, 0xbf,
  0x06, 0x12, 0x34, 0x3e, 0x00, 0x00, 0x00, 0x00, 0xda, 0x8c, 0x93, 0x3c,
  0x00, 0x00, 0x00, 0x00, 0x00, 0x00, 0x00, 0x00, 0x26, 0xf0, 0x15, 0x3e,
  0x00, 0x00, 0x00, 0x00, 0xe2, 0xfb, 0xff, 0xff, 0x04, 0x00, 0x00, 0x00,
  0x04, 0x00, 0x00, 0x00, 0x3e, 0x99, 0x4e, 0xbe, 0xf2, 0xfb, 0xff, 0xff,
  0x04, 0x00, 0x00, 0x00, 0x00, 0x04, 0x00, 0x00, 0x84, 0x70, 0xd2, 0x3d,
  0x28, 0x16, 0xbe, 0x3d, 0x1e, 0xf0, 0xbd, 0xbe, 0x43, 0xe1, 0x96, 0x3e,
  0x80, 0xde, 0xab, 0x3b, 0xcc, 0xd4, 0x98, 0xbe, 0x8e, 0xac, 0x7f, 0x3e,
  0x4c, 0xe1, 0x8d, 0xbe, 0x65, 0x2e, 0xce, 0xbe, 0x9a, 0xed, 0x35, 0xbe,
  0x03, 0xbc, 0xd0, 0xbe, 0x15, 0x81, 0xb9, 0x3e, 0xa1, 0xbd, 0x51, 0xbe,
  0xea, 0x88, 0x02, 0xbe, 0x8c, 0xc2, 0xb7, 0x3d, 0x99, 0x68, 0x96, 0x3e,
  0x7b, 0x22, 0x8f, 0xbe, 0xe4, 0x31, 0x9b, 0xbd, 0x88, 0x01, 0x17, 0xbe,
  0xc7, 0x4b, 0xbb, 0x3e, 0xf3, 0xbf, 0x94, 0x3e, 0xca, 0xea, 0x0a, 0x3e,
  0x1e, 0x27, 0x7d, 0xbe, 0xc6, 0x40, 0xa5, 0xbe, 0x10, 0x72, 0x42, 0xbd,
  0x6a, 0x80, 0x4a, 0xbe, 0xaa, 0x50, 0x17, 0xbe, 0x1a, 0xe1, 0xa9, 0xbe,
  0x62, 0xc6, 0xaf, 0xbe, 0x4f, 0xd1, 0xcd, 0xbe, 0xde, 0xf6, 0x27, 0xbe,
  0x4d, 0x0f, 0xdb, 0x3e, 0x34, 0xfe, 0xd4, 0xbe, 0xe6, 0x80, 0x13, 0x3e,
  0xc0, 0xdd, 0xa2, 0xbe, 0x3f, 0x30, 0xc6, 0x3e, 0xae, 0x5e, 0x7a, 0x3e,
  0xb3, 0x09, 0x4c, 0xbe, 0x5a, 0x35, 0x25, 0xbe, 0x1b, 0x5b, 0xb5, 0xbe,
  0xec, 0x9f, 0xce, 0x3d, 0x14, 0x7f, 0xc6, 0x3d, 0x82, 0x02, 0xc3, 0xbe,
  0xd3, 0x2f, 0x82, 0x3e, 0x93, 0x2a, 0xc1, 0x3e, 0xc6, 0x09, 0x6e, 0x3e,
  0x80, 0xc9, 0xcc, 0xbc, 0xaa, 0x87, 0x07, 0x3e, 0xff, 0xde, 0x30, 0xbf,
  0xeb, 0xe1, 0x9e, 0xbd, 0x37, 0x35, 0x67, 0x3e, 0xe8, 0x43, 0x52, 0xbd,
  0xc6, 0xea, 0x5e, 0x3e, 0xf3, 0x25, 0xc9, 0xbe, 0xbc, 0x1a, 0x96, 0xbd,
  0x35, 0xce, 0xd4, 0x3d, 0x13, 0x31, 0xa5, 0x3e, 0xb2, 0x61, 0x54, 0xbe,
  0xe1, 0xab, 0xf5, 0xbe, 0x18, 0x09, 0xb9, 0xbd, 0xc2, 0x1f, 0x7a, 0x3e,
  0x84, 0x1b, 0xe0, 0x3e, 0x80, 0x54, 0xa4, 0x3e, 0xae, 0x46, 0x15, 0x3e,
  0xa4, 0x1a, 0x3a, 0x3f, 0xea, 0x92, 0xe6, 0x3d, 0x86, 0x80, 0x41, 0xbf,
  0x1c, 0x8b, 0xed, 0x3d, 0xe6, 0x1c, 0x4b, 0x3e, 0x2b, 0x51, 0xc1, 0xbe,
  0xb2, 0x6c, 0x14, 0x3e, 0x84, 0x34, 0xec, 0xbc, 0x08, 0xb5, 0x58, 0x3d,
  0xc1, 0xda, 0xf0, 0x3e, 0x2d, 0x41, 0x2f, 0x3e, 0x41, 0xca, 0xaa, 0x3e,
  0x42, 0x09, 0x12, 0xbf, 0x66, 0x01, 0x4e, 0xbe, 0xc8, 0xf3, 0x1d, 0xbe,
  0xdc, 0x0f, 0x33, 0x3f, 0xe7, 0x38, 0xca, 0xbd, 0xbf, 0x6f, 0xc8, 0xbe,
  0xff, 0x8b, 0xa6, 0x3e, 0x38, 0xa8, 0x77, 0xbd, 0x4f, 0xbd, 0xa1, 0xbe,
  0xfc, 0x7a, 0xd1, 0x3d, 0x24, 0x4c, 0xcf, 0xbe, 0xa0, 0xaf, 0xd4, 0xbe,
  0x02, 0xac, 0x64, 0x3e, 0xdf, 0x5f, 0x2f, 0xbe, 0x60, 0xbc, 0x24, 0x3e,
  0x60, 0xb6, 0x59, 0x3d, 0xde, 0x12, 0x2b, 0x3e, 0x47, 0xbb, 0x91, 0x3e,
  0x7d, 0xd8, 0x62, 0x3e, 0xac, 0x05, 0xc3, 0xbe, 0x65, 0xb5, 0xdc, 0x3b,
  0x67, 0xee, 0xd2, 0x3c, 0xbe, 0x6b, 0x1c, 0x3c, 0xb0, 0xe0, 0xbc, 0xbe,
  0x3a, 0xd3, 0x78, 0xbe, 0x05, 0x0d, 0x80, 0x3e, 0x98, 0x1c, 0x94, 0xbe,
  0xb5, 0xa7, 0xfc, 0xbd, 0x9a, 0x53, 0x39, 0xbe, 0x69, 0x1c, 0x3d, 0xbe,
  0xa2, 0x79, 0x0a, 0x3f, 0xb6, 0x3a, 0x17, 0x3e, 0x33, 0xc2, 0x84, 0x3d,
  0xf7, 0xe6, 0xcd, 0xbe, 0xb1, 0x9a, 0xd3, 0xbe, 0x91, 0xab, 0x75, 0xbe,
  0x19, 0xa0, 0x9c, 0x3e, 0x2d, 0x62, 0x68, 0xbc, 0x6a, 0xb9, 0x76, 0x3e,
  0x68, 0xf3, 0xd7, 0xbe, 0x34, 0xa4, 0xc2, 0xbe, 0x62, 0xff, 0xb3, 0xbe,
  0x62, 0xfb, 0x5c, 0x3e, 0x50, 0x66, 0xd5, 0xbe, 0xa8, 0x88, 0x38, 0xbe,
  0x95, 0x39, 0x33, 0x3e, 0x95, 0xf9, 0xe6, 0x3e, 0x6a, 0x48, 0x6f, 0x3e,
  0xaa, 0x43, 0x86, 0x3d, 0x0c, 0xe5, 0x50, 0xbe, 0x76, 0x9c, 0x09, 0xbf,
  0xe3, 0x24, 0xe8, 0x3e, 0x42, 0x89, 0x36, 0xbf, 0xc9, 0x63, 0xbb, 0xbe,
  0x46, 0xa7, 0x49, 0x3e, 0x4c, 0xdf, 0xb7, 0x3d, 0x26, 0x3a, 0xc8, 0xbe,
  0x79, 0x2d, 0x8f, 0x3e, 0x53, 0x0d, 0x59, 0xbe, 0x4d, 0xca, 0xc6, 0x3e,
  0x4c, 0x19, 0xb4, 0xbe, 0x19, 0xd0, 0x04, 0x3f, 0xf6, 0x76, 0xd6, 0xbe,
  0x74, 0x63, 0xd6, 0xbe, 0x69, 0xb3, 0xcb, 0xbb, 0xbb, 0xdc, 0x20, 0xbd,
  0x06, 0xaf, 0xb4, 0x3e, 0x86, 0xbe, 0xca, 0x3c, 0xc8, 0xbc, 0x7a, 0x3e,
  0x58, 0xd7, 0xfe, 0x3d, 0xb8, 0x4b, 0x6e, 0xbe, 0xea, 0xa8, 0xba, 0xbe,
  0x54, 0x9d, 0xdd, 0xbd, 0x8a, 0xb2, 0x47, 0x3e, 0x10, 0xed, 0xac, 0xbc,
  0xcf, 0x9f, 0x27, 0x3e, 0x41, 0xf8, 0xb3, 0xbe, 0xeb, 0x24, 0x05, 0xbf,
  0x9f, 0x7b, 0x74, 0x3e, 0xce, 0x9e, 0x06, 0xbe, 0xf8, 0x1b, 0x03, 0x3f,
  0x7b, 0x14, 0xb9, 0xbe, 0x3c, 0x2c, 0x07, 0xbf, 0x86, 0xce, 0xa5, 0x3e,
  0x80, 0x14, 0xdd, 0xbb, 0xb8, 0xfa, 0x1c, 0x3d, 0x87, 0xf0, 0x87, 0xbe,
  0xb4, 0xaa, 0x62, 0xbe, 0x3e, 0x41, 0x6f, 0x3e, 0x44, 0x65, 0xef, 0xbd,
  0x3b, 0x97, 0x74, 0xbe, 0x8a, 0xde, 0x3d, 0xbe, 0xa7, 0x8f, 0xa6, 0x3e,
  0x87, 0x27, 0x84, 0x3e, 0xa8, 0xab, 0x92, 0xbe, 0xd3, 0x35, 0x44, 0xbe,
  0x76, 0xc4, 0x07, 0x3e, 0x98, 0x00, 0xb6, 0xbd, 0xda, 0x99, 0x43, 0x3e,
  0x8c, 0xfb, 0x1a, 0xbe, 0x45, 0x83, 0x43, 0xbe, 0xaf, 0xbd, 0x27, 0xbe,
  0x5d, 0x9f, 0x74, 0x3e, 0x38, 0x61, 0x7d, 0xbe, 0x4c, 0x9c, 0xb5, 0x3d,
  0xfe, 0x55, 0x73, 0x3e, 0xb9, 0xd4, 0xc1, 0xbe, 0x4b, 0x4b, 0x1a, 0x3f,
  0x0c, 0x0a, 0xbb, 0x3d, 0x68, 0x52, 0xb4, 0x3e, 0x65, 0x15, 0x8a, 0x3e,
  0x3e, 0x33, 0x73, 0x3e, 0xcb, 0x6c, 0xe9, 0x3d, 0x81, 0x60, 0x86, 0xbd,
  0x34, 0x5b, 0xa6, 0x3e, 0x7e, 0xee, 0x07, 0x3f, 0x5f, 0x1e, 0x53, 0xbe,
  0x20, 0x13, 0x76, 0x3c, 0x88, 0xcb, 0xfc, 0xbd, 0x38, 0xa3, 0xc2, 0xbe,
  0x8a, 0x1f, 0x5f, 0x3e, 0x09, 0x70, 0xc3, 0x3e, 0xcc, 0x8e, 0x81, 0xbe,
  0x38, 0x83, 0x2e, 0x3d, 0xc4, 0x83, 0xb2, 0xbe, 0xc5, 0xc3, 0xce, 0xbe,
  0xca, 0xca, 0x36, 0xbe, 0x79, 0x47, 0xba, 0x3e, 0xc2, 0x5b, 0x5c, 0x3e,
  0x8b, 0xd6, 0xab, 0xbe, 0xad, 0x7f, 0xa7, 0x3e, 0xd8, 0x76, 0x27, 0x3d,
  0x18, 0x3a, 0xd9, 0xbd, 0x84, 0xd0, 0xc9, 0xbe, 0xaa, 0x36, 0xaa, 0xbe,
  0x8a, 0x1c, 0x87, 0xbe, 0x88, 0xf0, 0x22, 0x3d, 0x08, 0xbc, 0x4f, 0x3d,
  0x37, 0x6e, 0xbd, 0xbe, 0xd1, 0x14, 0xd2, 0x3e, 0x60, 0x37, 0x2c, 0xbe,
  0x7c, 0x1e, 0xd1, 0xbe, 0xf4, 0xe5, 0xb7, 0x3d, 0x0d, 0x1a, 0x48, 0xbe,
  0xf5, 0x5f, 0xc0, 0x3e, 0xa6, 0x8b, 0x99, 0xbe, 0x18, 0x9c, 0x39, 0xbd,
  0x1f, 0x2a, 0x86, 0x3e, 0x57, 0x52, 0xaf, 0x3e, 0xc9, 0x62, 0xda, 0x3e,
  0xab, 0xf0, 0xf9, 0x3c, 0xbe, 0x87, 0x37, 0xbe, 0x0e, 0xfb, 0x45, 0xbe,
  0x5d, 0xc8, 0x9e, 0xbe, 0x80, 0x47, 0xf1, 0xbb, 0x87, 0x2a, 0x0d, 0xbf,
  0x8b, 0x7c, 0xa0, 0x3e, 0xfb, 0xe8, 0xc3, 0xbe, 0x9b, 0x38, 0xe6, 0x3e,
  0x6f, 0x88, 0xa2, 0xbe, 0xeb, 0x71, 0x19, 0x3d, 0xbe, 0xc4, 0x17, 0xbf,
  0x00, 0x4e, 0x63, 0xbd, 0x83, 0x57, 0x16, 0x3d, 0xfa, 0xb7, 0x5a, 0xbe,
  0xba, 0xf7, 0x0e, 0x3e, 0xea, 0xcf, 0x9e, 0xbe, 0x01, 0x76, 0x56, 0xbe,
  0xf0, 0x10, 0x75, 0xbe, 0x10, 0x7d, 0xd6, 0xbc, 0xad, 0xf8, 0x99, 0x3e,
  0x96, 0x58, 0xd3, 0xbe, 0xe0, 0x76, 0x9b, 0xbe, 0xbd, 0xab, 0xac, 0x3e,
  0x14, 0x28, 0x97, 0xbd, 0x2b, 0x2f, 0xd9, 0xbe, 0x80, 0xca, 0xf4, 0xbb,
  0x6e, 0xba, 0x55, 0x3e, 0x98, 0x84, 0xa9, 0xbd, 0xae, 0x7a, 0xa1, 0xbe,
  0x00, 0x00, 0x06, 0x00, 0x08, 0x00, 0x04, 0x00, 0x06, 0x00, 0x00, 0x00,
  0x04, 0x00, 0x00, 0x00, 0x40, 0x00, 0x00, 0x00, 0xdc, 0x24, 0xd5, 0x3d,
  0xa4, 0x41, 0xa5, 0x3e, 0xa4, 0xc6, 0x5b, 0x3e, 0x40, 0xe8, 0x8a, 0x3f,
  0x48, 0x64, 0x6a, 0xbf, 0x3c, 0x18, 0x45, 0xbe, 0x1f, 0xca, 0x15, 0x3f,
  0xe7, 0xa0, 0x9f, 0x3e, 0xd6, 0x02, 0xe5, 0x3f, 0x57, 0xf2, 0x0c, 0x3f,
  0x40, 0x46, 0x02, 0x3f, 0xa9, 0x7e, 0xa2, 0xbe, 0xc0, 0xcd, 0x96, 0x3e,
  0xf0, 0xb3, 0x91, 0x3d, 0xcc, 0xba, 0x42, 0x3f, 0x0c, 0xd7, 0x6a, 0x3e,
  0x38, 0xfb, 0xff, 0xff, 0x3c, 0xfb, 0xff, 0xff, 0x0f, 0x00, 0x00, 0x00,
  0x4d, 0x4c, 0x49, 0x52, 0x20, 0x43, 0x6f, 0x6e, 0x76, 0x65, 0x72, 0x74,
  0x65, 0x64, 0x2e, 0x00, 0x01, 0x00, 0x00, 0x00, 0x14, 0x00, 0x00, 0x00,
  0x00, 0x00, 0x0e, 0x00, 0x18, 0x00, 0x14, 0x00, 0x10, 0x00, 0x0c, 0x00,
  0x08, 0x00, 0x04, 0x00, 0x0e, 0x00, 0x00, 0x00, 0x14, 0x00, 0x00, 0x00,
  0x1c, 0x00, 0x00, 0x00, 0xd8, 0x00, 0x00, 0x00, 0xdc, 0x00, 0x00, 0x00,
  0xe0, 0x00, 0x00, 0x00, 0x04, 0x00, 0x00, 0x00, 0x6d, 0x61, 0x69, 0x6e,
  0x00, 0x00, 0x00, 0x00, 0x03, 0x00, 0x00, 0x00, 0x80, 0x00, 0x00, 0x00,
  0x38, 0x00, 0x00, 0x00, 0x04, 0x00, 0x00, 0x00, 0x9a, 0xff, 0xff, 0xff,
  0x10, 0x00, 0x00, 0x00, 0x00, 0x00, 0x00, 0x08, 0x0c, 0x00, 0x00, 0x00,
  0x10, 0x00, 0x00, 0x00, 0xb4, 0xfb, 0xff, 0xff, 0x01, 0x00, 0x00, 0x00,
  0x09, 0x00, 0x00, 0x00, 0x03, 0x00, 0x00, 0x00, 0x08, 0x00, 0x00, 0x00,
  0x01, 0x00, 0x00, 0x00, 0x03, 0x00, 0x00, 0x00, 0xca, 0xff, 0xff, 0xff,
  0x10, 0x00, 0x00, 0x00, 0x00, 0x00, 0x00, 0x08, 0x10, 0x00, 0x00, 0x00,
  0x14, 0x00, 0x00, 0x00, 0xba, 0xff, 0xff, 0xff, 0x00, 0x00, 0x00, 0x01,
  0x01, 0x00, 0x00, 0x00, 0x08, 0x00, 0x00, 0x00, 0x03, 0x00, 0x00, 0x00,
  0x07, 0x00, 0x00, 0x00, 0x02, 0x00, 0x00, 0x00, 0x04, 0x00, 0x00, 0x00,
  0x00, 0x00, 0x0e, 0x00, 0x16, 0x00, 0x00, 0x00, 0x10, 0x00, 0x0c, 0x00,
  0x0b, 0x00, 0x04, 0x00, 0x0e, 0x00, 0x00, 0x00, 0x18, 0x00, 0x00, 0x00,
  0x00, 0x00, 0x00, 0x08, 0x18, 0x00, 0x00, 0x00, 0x1c, 0x00, 0x00, 0x00,
  0x00, 0x00, 0x06, 0x00, 0x08, 0x00, 0x07, 0x00, 0x06, 0x00, 0x00, 0x00,
  0x00, 0x00, 0x00, 0x01, 0x01, 0x00, 0x00, 0x00, 0x07, 0x00, 0x00, 0x00,
  0x03, 0x00, 0x00, 0x00, 0x00, 0x00, 0x00, 0x00, 0x06, 0x00, 0x00, 0x00,
  0x05, 0x00, 0x00, 0x00, 0x01, 0x00, 0x00, 0x00, 0x09, 0x00, 0x00, 0x00,
  0x01, 0x00, 0x00, 0x00, 0x00, 0x00, 0x00, 0x00, 0x0a, 0x00, 0x00, 0x00,
  0x74, 0x03, 0x00, 0x00, 0x1c, 0x03, 0x00, 0x00, 0xc4, 0x02, 0x00, 0x00,
  0x88, 0x02, 0x00, 0x00, 0x4c, 0x02, 0x00, 0x00, 0xf0, 0x01, 0x00, 0x00,
  0xa0, 0x01, 0x00, 0x00, 0x00, 0x01, 0x00, 0x00, 0x60, 0x00, 0x00, 0x00,
  0x04, 0x00, 0x00, 0x00, 0xca, 0xfc, 0xff, 0xff, 0x00, 0x00, 0x00, 0x01,
  0x14, 0x00, 0x00, 0x00, 0x1c, 0x00, 0x00, 0x00, 0x1c, 0x00, 0x00, 0x00,
  0x0a, 0x00, 0x00, 0x00, 0x34, 0x00, 0x00, 0x00, 0x02, 0x00, 0x00, 0x00,
  0xff, 0xff, 0xff, 0xff, 0x01, 0x00, 0x00, 0x00, 0xb4, 0xfc, 0xff, 0xff,
  0x1b, 0x00, 0x00, 0x00, 0x53, 0x74, 0x61, 0x74, 0x65, 0x66, 0x75, 0x6c,
  0x50, 0x61, 0x72, 0x74, 0x69, 0x74, 0x69, 0x6f, 0x6e, 0x65, 0x64, 0x43,
  0x61, 0x6c, 0x6c, 0x5f, 0x31, 0x3a, 0x30, 0x00, 0x02, 0x00, 0x00, 0x00,
  0x01, 0x00, 0x00, 0x00, 0x01, 0x00, 0x00, 0x00, 0x22, 0xfd, 0xff, 0xff,
  0x00, 0x00, 0x00, 0x01, 0x14, 0x00, 0x00, 0x00, 0x1c, 0x00, 0x00, 0x00,
  0x1c, 0x00, 0x00, 0x00, 0x09, 0x00, 0x00, 0x00, 0x78, 0x00, 0x00, 0x00,
  0x02, 0x00, 0x00, 0x00, 0xff, 0xff, 0xff, 0xff, 0x10, 0x00, 0x00, 0x00,
  0x0c, 0xfd, 0xff, 0xff, 0x5e, 0x00, 0x00, 0x00, 0x73, 0x65, 0x71, 0x75,
  0x65, 0x6e, 0x74, 0x69, 0x61, 0x6c, 0x5f, 0x32, 0x5f, 0x31, 0x2f, 0x64,
  0x65, 0x6e, 0x73, 0x65, 0x5f, 0x33, 0x5f, 0x31, 0x2f, 0x4d, 0x61, 0x74,
  0x4d, 0x75, 0x6c, 0x3b, 0x73, 0x65, 0x71, 0x75, 0x65, 0x6e, 0x74, 0x69,
  0x61, 0x6c, 0x5f, 0x32, 0x5f, 0x31, 0x2f, 0x64, 0x65, 0x6e, 0x73, 0x65,
  0x5f, 0x33, 0x5f, 0x31, 0x2f, 0x52, 0x65, 0x6c, 0x75, 0x3b, 0x73, 0x65,
  0x71, 0x75, 0x65, 0x6e, 0x74, 0x69, 0x61, 0x6c, 0x5f, 0x32, 0x5f, 0x31,
  0x2f, 0x64, 0x65, 0x6e, 0x73, 0x65, 0x5f, 0x33, 0x5f, 0x31, 0x2f, 0x42,
  0x69, 0x61, 0x73, 0x41, 0x64, 0x64, 0x00, 0x00, 0x02, 0x00, 0x00, 0x00,
  0x01, 0x00, 0x00, 0x00, 0x10, 0x00, 0x00, 0x00, 0xbe, 0xfd, 0xff, 0xff,
  0x00, 0x00, 0x00, 0x01, 0x14, 0x00, 0x00, 0x00, 0x1c, 0x00, 0x00, 0x00,
  0x1c, 0x00, 0x00, 0x00, 0x08, 0x00, 0x00, 0x00, 0x78, 0x00, 0x00, 0x00,
  0x02, 0x00, 0x00, 0x00, 0xff, 0xff, 0xff, 0xff, 0x10, 0x00, 0x00, 0x00,
  0xa8, 0xfd, 0xff, 0xff, 0x5e, 0x00, 0x00, 0x00, 0x73, 0x65, 0x71, 0x75,
  0x65, 0x6e, 0x74, 0x69, 0x61, 0x6c, 0x5f, 0x32, 0x5f, 0x31, 0x2f, 0x64,
  0x65, 0x6e, 0x73, 0x65, 0x5f, 0x32, 0x5f, 0x31, 0x2f, 0x4d, 0x61, 0x74,
  0x4d, 0x75, 0x6c, 0x3b, 0x73, 0x65, 0x71, 0x75, 0x65, 0x6e, 0x74, 0x69,
  0x61, 0x6c, 0x5f, 0x32, 0x5f, 0x31, 0x2f, 0x64, 0x65, 0x6e, 0x73, 0x65,
  0x5f, 0x32, 0x5f, 0x31, 0x2f, 0x52, 0x65, 0x6c, 0x75, 0x3b, 0x73, 0x65,
  0x71, 0x75, 0x65, 0x6e, 0x74, 0x69, 0x61, 0x6c, 0x5f, 0x32, 0x5f, 0x31,
  0x2f, 0x64, 0x65, 0x6e, 0x73, 0x65, 0x5f, 0x32, 0x5f, 0x31, 0x2f, 0x42,
  0x69, 0x61, 0x73, 0x41, 0x64, 0x64, 0x00, 0x00, 0x02, 0x00, 0x00, 0x00,
  0x01, 0x00, 0x00, 0x00, 0x10, 0x00, 0x00, 0x00, 0xae, 0xfe, 0xff, 0xff,
  0x00, 0x00, 0x00, 0x01, 0x10, 0x00, 0x00, 0x00, 0x10, 0x00, 0x00, 0x00,
  0x07, 0x00, 0x00, 0x00, 0x2c, 0x00, 0x00, 0x00, 0x34, 0xfe, 0xff, 0xff,
  0x1f, 0x00, 0x00, 0x00, 0x73, 0x65, 0x71, 0x75, 0x65, 0x6e, 0x74, 0x69,
  0x61, 0x6c, 0x5f, 0x32, 0x5f, 0x31, 0x2f, 0x64, 0x65, 0x6e, 0x73, 0x65,
  0x5f, 0x32, 0x5f, 0x31, 0x2f, 0x4d, 0x61, 0x74, 0x4d, 0x75, 0x6c, 0x00,
  0x02, 0x00, 0x00, 0x00, 0x10, 0x00, 0x00, 0x00, 0x01, 0x00, 0x00, 0x00,
  0xfa, 0xfe, 0xff, 0xff, 0x00, 0x00, 0x00, 0x01, 0x10, 0x00, 0x00, 0x00,
  0x10, 0x00, 0x00, 0x00, 0x06, 0x00, 0x00, 0x00, 0x3c, 0x00, 0x00, 0x00,
  0x80, 0xfe, 0xff, 0xff, 0x2f, 0x00, 0x00, 0x00, 0x73, 0x65, 0x71, 0x75,
  0x65, 0x6e, 0x74, 0x69, 0x61, 0x6c, 0x5f, 0x32, 0x5f, 0x31, 0x2f, 0x64,
  0x65, 0x6e, 0x73, 0x65, 0x5f, 0x32, 0x5f, 0x31, 0x2f, 0x42, 0x69, 0x61,
  0x73, 0x41, 0x64, 0x64, 0x2f, 0x52, 0x65, 0x61, 0x64, 0x56, 0x61, 0x72,
  0x69, 0x61, 0x62, 0x6c, 0x65, 0x4f, 0x70, 0x00, 0x01, 0x00, 0x00, 0x00,
  0x10, 0x00, 0x00, 0x00, 0x52, 0xff, 0xff, 0xff, 0x00, 0x00, 0x00, 0x01,
  0x10, 0x00, 0x00, 0x00, 0x10, 0x00, 0x00, 0x00, 0x05, 0x00, 0x00, 0x00,
  0x1c, 0x00, 0x00, 0x00, 0xd8, 0xfe, 0xff, 0xff, 0x0f, 0x00, 0x00, 0x00,
  0x61, 0x72, 0x69, 0x74, 0x68, 0x2e, 0x63, 0x6f, 0x6e, 0x73, 0x74, 0x61,
  0x6e, 0x74, 0x33, 0x00, 0x01, 0x00, 0x00, 0x00, 0x10, 0x00, 0x00, 0x00,
  0x8a, 0xff, 0xff, 0xff, 0x00, 0x00, 0x00, 0x01, 0x10, 0x00, 0x00, 0x00,
  0x10, 0x00, 0x00, 0x00, 0x04, 0x00, 0x00, 0x00, 0x1c, 0x00, 0x00, 0x00,
  0x10, 0xff, 0xff, 0xff, 0x0f, 0x00, 0x00, 0x00, 0x61, 0x72, 0x69, 0x74,
  0x68, 0x2e, 0x63, 0x6f, 0x6e, 0x73, 0x74, 0x61, 0x6e, 0x74, 0x32, 0x00,
  0x01, 0x00, 0x00, 0x00, 0x01, 0x00, 0x00, 0x00, 0xc2, 0xff, 0xff, 0xff,
  0x00, 0x00, 0x00, 0x01, 0x10, 0x00, 0x00, 0x00, 0x10, 0x00, 0x00, 0x00,
  0x03, 0x00, 0x00, 0x00, 0x1c, 0x00, 0x00, 0x00, 0x48, 0xff, 0xff, 0xff,
  0x0f, 0x00, 0x00, 0x00, 0x61, 0x72, 0x69, 0x74, 0x68, 0x2e, 0x63, 0x6f,
  0x6e, 0x73, 0x74, 0x61, 0x6e, 0x74, 0x31, 0x00, 0x02, 0x00, 0x00, 0x00,
  0x10, 0x00, 0x00, 0x00, 0x10, 0x00, 0x00, 0x00, 0x00, 0x00, 0x16, 0x00,
  0x18, 0x00, 0x14, 0x00, 0x00, 0x00, 0x10, 0x00, 0x0c, 0x00, 0x08, 0x00,
  0x00, 0x00, 0x00, 0x00, 0x00, 0x00, 0x07, 0x00, 0x16, 0x00, 0x00, 0x00,
  0x00, 0x00, 0x00, 0x01, 0x10, 0x00, 0x00, 0x00, 0x10, 0x00, 0x00, 0x00,
  0x02, 0x00, 0x00, 0x00, 0x1c, 0x00, 0x00, 0x00, 0x9c, 0xff, 0xff, 0xff,
  0x0e, 0x00, 0x00, 0x00, 0x61, 0x72, 0x69, 0x74, 0x68, 0x2e, 0x63, 0x6f,
  0x6e, 0x73, 0x74, 0x61, 0x6e, 0x74, 0x00, 0x00, 0x02, 0x00, 0x00, 0x00,
  0x01, 0x00, 0x00, 0x00, 0x10, 0x00, 0x00, 0x00, 0x00, 0x00, 0x16, 0x00,
  0x1c, 0x00, 0x18, 0x00, 0x00, 0x00, 0x14, 0x00, 0x10, 0x00, 0x0c, 0x00,
  0x00, 0x00, 0x00, 0x00, 0x08, 0x00, 0x07, 0x00, 0x16, 0x00, 0x00, 0x00,
  0x00, 0x00, 0x00, 0x01, 0x14, 0x00, 0x00, 0x00, 0x20, 0x00, 0x00, 0x00,
  0x20, 0x00, 0x00, 0x00, 0x01, 0x00, 0x00, 0x00, 0x40, 0x00, 0x00, 0x00,
  0x02, 0x00, 0x00, 0x00, 0xff, 0xff, 0xff, 0xff, 0x01, 0x00, 0x00, 0x00,
  0x04, 0x00, 0x04, 0x00, 0x04, 0x00, 0x00, 0x00, 0x20, 0x00, 0x00, 0x00,
  0x73, 0x65, 0x72, 0x76, 0x69, 0x6e, 0x67, 0x5f, 0x64, 0x65, 0x66, 0x61,
  0x75, 0x6c, 0x74, 0x5f, 0x6b, 0x65, 0x72, 0x61, 0x73, 0x5f, 0x74, 0x65,
  0x6e, 0x73, 0x6f, 0x72, 0x5f, 0x34, 0x3a, 0x30, 0x00, 0x00, 0x00, 0x00,
  0x02, 0x00, 0x00, 0x00, 0x01, 0x00, 0x00, 0x00, 0x01, 0x00, 0x00, 0x00,
  0x01, 0x00, 0x00, 0x00, 0x10, 0x00, 0x00, 0x00, 0x0c, 0x00, 0x0c, 0x00,
  0x0b, 0x00, 0x00, 0x00, 0x00, 0x00, 0x04, 0x00, 0x0c, 0x00, 0x00, 0x00,
  0x09, 0x00, 0x00, 0x00, 0x00, 0x00, 0x00, 0x09
};
unsigned int model_quant_tflite_len = 3164;
